function [Y,Xf,Af] = myNeuralNetworkFunction(X,~,~)
%MYNEURALNETWORKFUNCTION neural network simulation function.
%
% Generated by Neural Network Toolbox function genFunction, 06-Mar-2018 01:26:36.
%
% [Y] = myNeuralNetworkFunction(X,~,~) takes these arguments:
%
%   X = 1xTS cell, 1 inputs over TS timsteps
%   Each X{1,ts} = 4xQ matrix, input #1 at timestep ts.
%
% and returns:
%   Y = 1xTS cell of 1 outputs over TS timesteps.
%   Each Y{1,ts} = 3xQ matrix, output #1 at timestep ts.
%
% where Q is number of samples (or series) and TS is the number of timesteps.

%#ok<*RPMT0>

% ===== NEURAL NETWORK CONSTANTS =====

% Input 1
x1_step1_xoffset = [0.0777565289849619;0.118207040474587;0.0177459619959907;0.0312308053594692];
x1_step1_gain = [2.19501901104433;2.44954438424499;2.09216635907739;2.20272186031326];
x1_step1_ymin = -1;

% Layer 1
b1 = [2.46990842439304;-1.9554602443890177;-1.2029277587804668;-0.90199404666456506;-0.056971874337707562;-0.31703542605305463;-0.61024247432253109;1.2124758588575995;1.9543038611492056;2.4951042752302999];
IW1_1 = [-1.8740229462535374 -0.60140056346375204 1.3937668374078924 0.65799836505173137;1.9421579734469414 -0.87487061741821803 1.1695165758716837 -0.49287587006069733;1.1151855681723177 -1.4857423924294226 -0.2797162379563668 1.7579839163573785;1.4627790319103884 1.4295860055814196 -0.91328280476198986 0.99569705302593381;-1.6458666084817675 0.8517517611272567 -1.658784266894574 0.36605479716287959;-1.6024733093622976 -1.3217763895455363 1.3298161727058062 -0.26217146992294238;-0.90250053526619667 -0.30115310042887383 -1.4129382474077072 1.8273382469060304;1.2385356559284215 -1.2902530966285024 -1.5496250082316079 0.98781084219175641;1.590687277739673 0.64009732289898114 -0.61077453090866662 -1.6657268105884451;1.5328800059645376 0.89712647613009089 1.3298005903912031 -1.101607594885019];

% Layer 2
b2 = [-0.23671719472147423;0.37141774938151556;-0.00059794160934091567];
LW2_1 = [0.21228498148962255 -0.41518226695913474 0.79970977698160739 -0.95067151169685948 -0.29550750857809932 -0.68289687979345859 0.74557445155603908 -0.42634500079321702 -0.48350706839983759 -0.06269829544634406;-0.16739461278971263 0.147726057358119 -0.070536520047251278 -0.12940520965132585 0.88522636010007882 0.057033088562269581 -0.57527777587744822 0.25845571654556465 -0.72434949926325365 -0.057815596927262569;-0.33205590284597619 -0.78366852411157828 0.57039430736292018 -0.83831471090090603 0.63888311502732309 -0.3655283831531706 0.37317225135376325 -0.57930450091001839 1.0077368422341977 -0.75208222387491463];

% ===== SIMULATION ========

% Format Input Arguments
isCellX = iscell(X);
if ~isCellX, X = {X}; end;

% Dimensions
TS = size(X,2); % timesteps
if ~isempty(X)
    Q = size(X{1},2); % samples/series
else
    Q = 0;
end

% Allocate Outputs
Y = cell(1,TS);

% Time loop
for ts=1:TS
    
    % Input 1
    Xp1 = mapminmax_apply(X{1,ts},x1_step1_gain,x1_step1_xoffset,x1_step1_ymin);
    
    % Layer 1
    a1 = tansig_apply(repmat(b1,1,Q) + IW1_1*Xp1);
    
    % Layer 2
    a2 = softmax_apply(repmat(b2,1,Q) + LW2_1*a1);
    
    % Output 1
    Y{1,ts} = a2;
end

% Final Delay States
Xf = cell(1,0);
Af = cell(2,0);

% Format Output Arguments
if ~isCellX, Y = cell2mat(Y); end
end

% ===== MODULE FUNCTIONS ========

% Map Minimum and Maximum Input Processing Function
function y = mapminmax_apply(x,settings_gain,settings_xoffset,settings_ymin)
y = bsxfun(@minus,x,settings_xoffset);
y = bsxfun(@times,y,settings_gain);
y = bsxfun(@plus,y,settings_ymin);
end

% Competitive Soft Transfer Function
function a = softmax_apply(n)
nmax = max(n,[],1);
n = bsxfun(@minus,n,nmax);
numer = exp(n);
denom = sum(numer,1);
denom(denom == 0) = 1;
a = bsxfun(@rdivide,numer,denom);
end

% Sigmoid Symmetric Transfer Function
function a = tansig_apply(n)
a = 2 ./ (1 + exp(-2*n)) - 1;
end
